10111110100101010101000101011100
10111011011001001001100010011100
00111110100100101011010001001010
10111110111110100010011011000111
00111110011110101111101111011011
00111110101100111001010001101000
10111111000111000110001111011001
00111110101011101100101111000001
00111110111001111100110000111001
00111110000001010011100111110011
00111110101010111001101111000001
00111110111111111110000110001000
10111010100011111100111000101111
00111100000010111010010101001000
00111110111111010000110101100100
10111110111001100101011011111011
10111111000010100110110110100100
10111111000010100001000011100111
10111110100001001001000011010101
10111110101010001110111010101001
00111110110010110001001000000010
10111110000001111111101010110111
10111110111110001100110010000001
10111110101010100001011010100100
00111111001111010001000111000100
00111110010101010110111000011101
00111101010000100000101111110001
00111100111100001001101000111101
10111110010111101011010011001010
00111110010011110110101001011110
00111111010010011011101111110000
10111111001000000110110100101011
10111110100101101001001010011001
00111110010100010001000000001001
00111110010100111100111000101111
10111110001001001100001101000011
10111110000000101100100110000010
00111110000010001100110100101100
10111111000101110100100111001001
10111111001010111111000011011100
00111110100010110101000010110011
00111110101101111111101011011010
10111101111111100110110101110011
00111110111111101110010001110111
00111110010110011111110010101001
00111111000001000010110110011000
10111110011010000010010100000110
00111110010101110001001101100011
10111110111000110101001110111100
10111110101010011001110100010101
00111110001011010111110100100000
10111110110100000110110100000010
00111111000110110011111000100110
10111101101111111010011111101010
00111110110001110101011100010110
10111111001100100001001000001000
10111110011000101110100100101010
10111101101011000001010010111001
10111110101100001111011010010100
00111101000111010111011110100000
10111100111000111000010111111001
00111110100000100001010100001100
00111111001111100000110001001111
10111110011011101011010100001101
10111110011111111111110011010011
00111110100001000111100000000110
10111110110110110011100000110110
10111111010111100010100001111111
00111111001010010011001011010101
00111110010111110101010100100011
10111110011000001101111100011001
00111101100110001000111010111101
