10111110110001110110101110000100
00111111000000101111001010101111
00111111001010001110011100010011
10111111011101011110011010011000
10111101100111101111000100010100
00111110000001001011101110000001
10111110101010000110110011001001
00111110000111011001010011101110
10111110010000000100000111111100
10111111011001111010010100101010
10111110101101111110011000101010
10111111000011110111010100011001
00111100110111110001110101000001
00111110011110011111011011000010
10111100101000011110000101001111
10111110010010010111110010100000
10111101110011110110001111100100
10111110101100001010000111010101
00111110101101010100011110010001
00111110011010011011111010011100
00111101111111111000110011101111
00111110011110011011110001001111
00111101110011101000100101010010
00111110001111011010101010011011
00111110000011111100011011110011
00111110000011011110111100000010
00111100001111100000001010011101
00111111001000001110100011111100
00111101110110010111001111001110
10111111010111010101001101110100
00111110001010000100100011111100
10111100111111000101010101110000
10111110111000000100010110101000
00111101111001101101001010011100
00111110011100001101001001000111
10111110101111110100011101010100
10111111001001110001101101101010
00111101110111011101101001101001
00111110110110010000011000111100
00111101001101110011101010010000
00111110010110110010100001101010
10111101110011011110101111000000
10111101001010111100100110011101
00111110101001110110101111011111
00111110010010101111110011010010
10111110101001111001000101101011
00111111011001011000100100000001
00111110001110001111110101111110
10111110111011000010001000101001
10111110001011011000111100100000
10111110000101011111000001100000
00111101101111100011100001110000
00111110010010111110110111100110
10111110010001000100100111001001
00111110001111101011110001010000
00111110101110110010001111000011
10111101000011100110110001010111
00111111000001000100100011101001
00111110101101111000110100001100
10111110000111001110000010111101
00111101101101110000111111100001
10111100101101011110100101011100
00111110001010100000110011001010
00111110101011011010110001111110
00111111001001000110110111001011
00111110111001101001110110111111
00111110000100101000101001011001
10111101111111011110101010001110
10111011010110110110101001101111
10111110110100100000000011010000
10111110111111011101010000110001
10111111000011110000011110100001
10111111001110011101110111000000
10111110110111010010111110110100
00111110010101001100110111100101
00111110000010111000101110000001
10111100101001111111101111100100
00111101001000000001011110110101
00111110011110101011111100010011
00111110101101101110101011110110
00111110010100010101110001110110
00111101010001100110111011111100
00111100001001001111110101101000
10111101100101111101111011110110
00111101111010101111011010000110
10111110000100001100101101100100
00111110110010110010000010101001
10111111001010111010110101000110
10111110111000101110111100001110
00111110100011101100001111100101
10111111000111101110101011101100
10111110111011101000101010011110
10111101101100111101101100010101
00111110111001001011010100111111
00111110111011111010011000001010
00111110101000001000111001101011
10111110010011111011001110001101
10111110100111100101111011110101
10111101110010110001001010011100
00111110101001101110111111100100
10111110110111000010111000100010
10111110111110010110101000010110
00111110010001101001001011010111
10111101100001010001001000000101
10111110000101101000011111101000
10111110000011110101010010111001
00111100001110011011110111111101
00111111000111001011011110101011
00111110111000011100101100100000
10111101101001011100001101000011
10111110101011101010101100000000
00111110101010000011110110001010
10111110100101100000110001000111
00111101001101100110100100001111
00111110100101101011111111000111
00111101100000100100110110110011
00111101001000110110101101011011
10111110100001001000110111000110
10111111000010101111000001001001
10111101101000010100111011100001
10111110001101111110100100100010
00111110110001000100110011010110
00111111100100011000110010000001
00111101110010111100101111101011
10111101111011011111101011010011
10111110111101110101110100101101
10111111100000101110001000110010
10111111000011100101101101110101
10111110011110001010000101100001
00111101110101001110010101001111
00111110100110111111101010110111
00111110101110110111101110011111
00111110111101101011110011101101
00111110111011001111000110111110
10111101011010001101010101001111
00111110110100000000110100101010
00111101001001001011001010010000
10111110100010001010111110000001
10111110100001010000101010100001
10111101000111011101001001111011
00111110000100001011011100000101
10111110111101111110000110111110
00111110000010011101011111110011
10111101101110100100000101111011
00111110100111100001011000110010
00111110011010110011011001110111
10111110010110110111100100101110
10111110110011100000111111100100
10111110000011010111100011000100
00111110101101000101011100011011
10111110001110010100011110100101
10111111001011111101001110011101
00111110101001001011100110001001
10111111001000011111010010010010
10111110100101011011101101010001
10111110111011100011011101111101
10111111010011110111010011100110
10111110001000100011110111100011
10111110110010001001011111111001
10111110001101100110111100110110
00111110101001111111010111110111
00111110101111010100101001000111
00111110010001001111010110000110
10111101000101101100111110011010
10111110010011011001111011100011
10111011001100010000111110111001
10111110111000011110000111000001
10111111010001010111100101011111
10111110100100101101110101100111
10111110010100101100111101010111
10111101000001000100001110010111
00111110011100110001011101000000
10111111000001000010010101010110
10111101110000100101110100100010
00111100100010001000011100000111
10111110101011110100101010100011
00111100100101111001111011001010
00111110101101011010111110110101
10111101100001011001011001111000
10111110010110000000010001000000
10111110110011101010111011001110
00111110101010011001001011101010
10111110111100100110000100100000
00111100100001011111001111101101
10111110101111001110010101100110
00111101010110100111100000001010
00111110001100110011010101110110
10111110111101110111100010000101
00111100001110001110111001010100
10111101111001111011011001111001
00111111000001110000011001100111
10111110101000111011001010010011
10111101001110011110000101110010
10111110101001101010010010010000
10111101100111001011111010101010
10111100011001100000001111101001
00111100011011111101011011111010
00111111000000111011111001100100
00111110101001000111000001110101
10111110010111000111111100011101
00111101110111110100110011100010
10111110100000011101001010110011
10111111000111111100110100001000
00111111001110100001110100100001
10111111011110110011011001001011
10111110110101111101000111000100
00111101011110011101111011101000
00111111000010111001100000110100
00111110010101111011101110001111
00111110001111011110000011000100
00111101000001001000110000011100
10111110010000011111001001000001
10111110010000101000011000101001
10111110101000000000111010001010
10111101011111100110000100110111
10111101111100100110111100100101
00111101101111110000011110011101
00111100000000011101010100101111
10111110110001010001010111001111
00111110010001101110111100000100
10111101000110110100000100110001
10111111000010111100000100011100
00111111000100100001011101001000
00111101011111101101010001101000
10111110010111001011010100101110
10111110001011000001001000101110
10111110010001111001010011000000
00111110101000011101101011000010
10111110101110001001001110110101
10111110101100100000110010110100
10111110010110001110011110010001
10111110100010010010111100010101
10111110100010000001100101100000
10111110100011010101111110110001
10111110010110000111000100011100
10111110101101111000111101001001
10111111011010100010001001000001
10111110101010101011010011011101
10111110101000010011111101000111
10111111001001101001101101100100
10111101101110100111101111100001
00111110100011100001100000101011
10111111000001100100101000000100
10111111001110010110111011000000
00111110011011111000101010001000
10111110101011001000111011111101
10111110011010101011100101011110
10111110100010011011010011101001
00111111000000111110000111000101
10111110100010001100011100010110
00111101001101010000100101010100
00111111000110010000110011010011
10111110111001000101101101010010
10111110100101101100100110110101
10111110001101100111010110011010
00111110001101111101010101010011
10111110011010111101101111111011
00111010010100111001100111110100
10111111000011000100000001000010
00111110001001010100011010010111
00111101111000100011011000111110
10111100111000101010010010011101
00111110100010010110001111110010
10111101010101101111101001010000
00111110100000110001110000101100
00111101100101110111011001010001
10111110111101001001001001101010
00111110110010100001110001110111
10111101001000010110110010110010
10111110110101001010001011011000
00111101110111010001110010001001
00111110011011110011010010111000
10111101110111111011110010010111
10111011100011001010011011111101
00111111001011011101100000111100
10111111000011010111010010010010
10111110110011001010001000111001
10111110010010101010010011101001
10111100010001111010100110011110
10111110110111000011010011100110
00111110100100111000101001000100
10111110110010110100110011100101
00111110101010001100100000111010
10111111000011111011100010011000
10111111001110110110111010001111
00111101100000111101001100101110
10111111100011100100110110011011
10111111010100011000011100001000
00111101110110101001101011111000
00111111001001101011100100011110
00111110101011001100000010100010
00111110110100010011011111110101
00111110110011010010100001001001
10111110001000000011100011110010
10111101101001111100100101101011
00111101110111011011001111100100
10111100110111000000010010001011
10111111000101011011100111110010
00111101010101101100100101110010
10111110110110100100101010011100
10111110011110110101100010001100
00111100110011101001101111101110
00111110011010100110100001001110
10111111011010111010100011110001
10111111000001010101010011101011
00111110110001111111101001111011
10111110100000111111001000101111
10111110111010001001001001000110
00111110001111011110011010001010
10111110111000110111010001111001
00111110011100011011100000110001
10111110010101011001101000010111
10111110111110101111011001000101
10111110110110010101010011010110
00111110010011101111110011101110
10111101111011100101010100110001
00111111000101000111100100011010
10111100001101101101010111010110
00111111000100100111001111000100
00111111001010110000001011001110
10111111010010111001101101010001
00111101010000110101001000011110
00111110110000111011100011000001
10111101011101000010100001100111
10111110110011110010000011011011
10111011000001001000000010101101
00111110100010011000011100111101
00111110101011011111100111010011
10111110111011111111100011111011
10111100101000011100001011011101
00111101101111101101000010001100
10111110000110110110110010000101
10111110010110011100010110000001
00111101001000111101100001000100
10111110111000100111111111010000
00111110100001111101111110011101
00111101001001000110111010100101
10111110010000010001110000101001
00111110100101100100001010100111
10111110101100111000100101110010
10111110011111100011101011011101
00111101001100000101101100010011
10111111001100001010000101011000
10111101000010010010011101101100
10111100101110101001100001100000
10111110011000100001010111001111
00111110111001111011100010100011
10111110011100111100000011010100
00111110100111000100101111001010
00111110100101111100100010000001
00111100100011001101011001101011
10111110001000001011000101100100
00111110010001000000011011110110
00111110100000000011000101010111
10111111000110111101101000110011
00111110010100101010101100111110
00111110001100101110010110000011
10111111000010000100010000001111
10111111011001110011000110110001
00111110001101111111010101011011
10111110100100011100000000000001
10111110111101110100001110111111
10111111000000011110110100011010
00111110000101110011001011110111
00111111000101011101000101111111
00111110000001011110110000100100
10111100110110010110011111010101
00111101001010110010111001000000
00111101101110000110011001111000
10111110100110000110001110001100
00111100101010101101010100010010
00111101111001110110000011111001
10111110000110010000111111011111
10111101001000111011000100001011
00111110111010010001010110000011
00111111011101100111101001100011
00111110111100000111100000010100
00111111000101110101010001001000
10111101101001100111000000110001
10111110010111010000111010111010
00111100101100010111000110100000
10111110001000010001011111101000
00111110110001111110010011110111
00111101011100011011110111101010
10111101110111010000101010011000
10111101100101001000100100101010
00111111010011011011111101111011
10111110001000010010110010010000
10111101100011000011100011101001
00111101110000000111100110001111
00111110100001001110011111011001
10111110101101100001101100101111
00111110111100110111010001101111
00111110001001000010011100000111
00111110001100011111000100000101
00111110100101111011010010101111
00111101101110100101110100011010
10111101111011010000000111101011
10111111001000000111100111000101
00111110110101000001010110010111
00111111000001100111101101000010
10111110111000100001110101110010
10111110100110011110001010111101
00111111001010111011000110001101
10111110010010010101010001110000
10111110100100000111000110111101
00111110001111110101011101001101
10111110011001100001010100001101
00111101101101101110110010011100
00111101101101110011001110010011
10111110001101010011100111010101
00111111000000000101000101010011
10111110111110111110001110001001
00111110110011111010010101001101
00111110111101000000001011010111
10111110100001111001111000110000
00111101011000100001111001110100
00111110110101111011001000110110
00111101101011100100111110011001
10111110100111100111101010001000
10111110011001101010001000111111
10111110011101001111010110101010
00111110001000011111101011001001
10111110111010010000101100100000
10111111001000110001101100100101
10111100100001111010001000001101
10111110101110000111110100100001
10111110101010000001101011001101
00111111010100100001010111011101
00111110011100001111001100101001
00111111000101000111011010000011
00111110111101101110000011001110
00111110110011101111000001101111
10111011111011100000000000001011
00111110010110101100111010111010
00111101010111111001000111000101
10111110000111100010110001010101
10111111000111110000110001100111
10111101101101111000011011111000
10111111100001001110110010011001
10111111001001010000001101000010
00111101011100101110011011101000
10111101000000100010101010000010
10111101111011010100001101000110
00111110001101111100001010100010
00111110001110010110111101101011
10111110100110110111001100011010
10111100111110100000100001010010
10111110000011100011010011011001
10111110001000111011110110000010
00111100001001111100111011100011
10111110010100010100000111110111
10111110000110111000101000000101
10111110111011011100001000111100
10111111001011110010000111001111
10111110110011101100100001100101
00111110110110000011000100010110
10111110001010011011101101100100
10111100001000011111100010010001
10111110000111101001111101110001
00111110100000001100010110101110
00111110111001111001011101101110
10111111100010100000100000011100
10111111011000110001010110101111
00111110000011100110111101011010
00111110001100010101011011111110
10111111000100010010101001001011
00111110001101111111111010100111
10111110110001100111101101011100
10111101110101010000110011100100
10111101101001111011100011100110
10111110000011000110011010000000
10111101011110001011000100110101
10111111010011011101000110000101
10111101101010101000011111110000
00111100000010001111101101110001
00111101000010110111110010010100
00111110001000000001110100001000
00111110101011001101101000011010
10111110100010111011011001111000
10111100111100011101001001111000
10111111001000011010111010100110
10111111001101100010001101011101
00111110110010001010010101111100
10111100111001010000110101000100
00111111001001110010110110111011
00111100110000101000001010111010
10111101101100001010101010100001
10111110101101101001101011100001
10111111001000101000011111111100
10111111010100001111001011001000
10111101110101101000100011100011
10111110100101010101011101001000
00111101100010100001001000100110
00111110101001100111101110100010
10111110000001010010010110110011
10111110000111000011000101111110
10111110100111100110010010110011
00111111001101100100101010101011
10111111000100000001010010010100
10111111001100111000000111011010
00111101001110011001000111011100
00111110000100100111101010110010
00111110000011111101100111010110
10111110001011011111000001100110
10111110110101100001011010101000
10111110000110101001110100101100
00111111000000111110110100011011
00111110001010010010100011101101
10111011101101111101001100001111
10111101111110000110001111100011
00111101111100110011001000011010
10111110010011010011110001111010
00111101000001000101001011011001
10111110010001101100010111110101
10111101111110000111010011010110
10111110001011000111101000100100
10111111000000100111100101100001
10111101011001101110110110110001
10111111000010101000011011000000
10111110010111011011011001110101
10111110100100011011100111110101
10111110110100000011001110111101
10111110001111110000101010011000
00111110101111101111110011000110
10111101110001000001100000010001
10111101010110000010111001000011
00111110100100101001101111111101
00111110110100110000100010001101
10111110011010110101110010111100
10111101111001100110100100010100
10111110010110100111111000010010
10111110101111010101000100001101
10111101111010000110001010011010
00111101110110011101000011001011
10111110011100100101100101001011
00111110110100100101110001001010
10111110111010111110111100110111
10111101110111110001010000100001
10111101110000011000100011101010
00111110000111011111100100111010
10111101101011000000100100011010
10111110101110010111100010100010
00111111001000001010011110101111
00111111001000110000100111011011
10111111000110111001101001100001
00111011111110100000111011100010
00111110010001010011101010101110
10111110111110001100100011011101
00111100101000000011001101111101
00111110101111110101111110111111
10111110111010111101000110000010
00111111001110000101000000111010
00111101110001011010000011111011
10111110111101110101101111100001
00111100101001101110101110110001
10111110101000000110000001011001
10111100010010001000101110110010
00111101100111101100010010011011
00111101100011000010100110001010
10111110110001010101001000000101
00111111011011100100011101110111
10111101111101101100100110111011
10111101010100010111100111100000
00111110000001000111110111001000
10111111000110111100101011110001
00111110110111000011011000011001
00111110010011101100110100010110
10111110101100001001010100001100
00111111000010011110010011000100
00111111000000000000100000111101
10111110110110111111000011010100
10111110011000010000010110100110
00111111000101001001001111100110
00111110011110111010011101011101
10111110001010100001101001100011
